TRT-100800-EntropyCalibration2
input: 3d02cd21
conv3d: 3bccf71b
leaky_relu_17: 3dcada60
instance_norm: 3d0ed12a
leaky_relu: 3cc945c6
conv3d_1: 3d321a08
instance_norm_15: 3dd87a00
leaky_relu_14: 3d2814fe
instance_norm_1: 3d532d55
leaky_relu_1: 3d05c166
max_pool3d: 3d05c166
conv3d_2: 3cd7f2e4
leaky_relu_15: 3d8b7ef6
convolution_3: 3c9bec4d
instance_norm_2: 3d7ebf7d
leaky_relu_2: 3d879a89
conv3d_3: 3cf2098d
pad_3: 3c9bec4d
cat_3: 3d05c166
instance_norm_3: 3d8ec528
leaky_relu_3: 3d002134
max_pool3d_1: 3d002134
conv3d_4: 3d12f8bf
conv3d_16: 3d0e9f5a
instance_norm_4: 3d9d8c6b
leaky_relu_4: 3d4a19d1
conv3d_5: 3d4679b1
instance_norm_14: 3d9085de
instance_norm_5: 3d99820d
leaky_relu_5: 3d449ffc
max_pool3d_2: 3d449ffc
conv3d_6: 3d4040b3
instance_norm_6: 3d7bf920
leaky_relu_6: 3d3a7d15
conv3d_7: 3d7ddb2f
instance_norm_7: 3d86b2fc
leaky_relu_7: 3d407866
max_pool3d_3: 3d407866
conv3d_8: 3d6f359d
instance_norm_16: 3d949d9b
leaky_relu_16: 3d502625
instance_norm_8: 3d501dfe
leaky_relu_8: 3d200d20
conv3d_9: 3d953860
conv3d_17: 3d98e112
instance_norm_9: 3d32b9b2
leaky_relu_9: 3d1ffd73
convolution: 3c80ab88
pad: 3c80ab88
cat: 3d407866
conv3d_10: 3d5eee07
instance_norm_10: 3d7065b3
leaky_relu_10: 3d33e20e
conv3d_11: 3d83772f
instance_norm_11: 3d890cbe
leaky_relu_11: 3d60edb1
convolution_1: 3c99508b
pad_1: 3c99508b
cat_1: 3d3b8c35
conv3d_12: 3d27f097
output: 3e2fc789
instance_norm_12: 3d9cce21
leaky_relu_12: 3d5407d1
conv3d_13: 3d8163fb
instance_norm_17: 3df9479b
instance_norm_13: 3db82e47
leaky_relu_13: 3d80b72c
convolution_2: 3cbf97f8
pad_2: 3cbf97f8
cat_2: 3d002134
conv3d_14: 3d17e221
conv3d_15: 3d17ec46
