TRT-100800-EntropyCalibration2
input: 3d03cbc2
conv3d: 3cb8ec00
instance_norm_15: 3dd1cd24
instance_norm: 3cfebd3f
leaky_relu: 3ce4eaf0
conv3d_1: 3d2f9129
leaky_relu_15: 3d82191e
conv3d_15: 3d0d3e74
instance_norm_1: 3d90693f
leaky_relu_1: 3d1088e6
max_pool3d: 3d1088e6
conv3d_2: 3cddb4a5
convolution_3: 3c998727
pad_3: 3c998727
instance_norm_2: 3da7d748
leaky_relu_2: 3d13d7e3
conv3d_3: 3d055c9a
cat_3: 3d0cfe2f
conv3d_16: 3d0871a3
instance_norm_3: 3d93006a
leaky_relu_3: 3d065ff3
max_pool3d_1: 3d065ff3
conv3d_4: 3d09b9cf
instance_norm_4: 3d9726bf
leaky_relu_4: 3d410dda
conv3d_5: 3d467820
instance_norm_5: 3d9552c1
leaky_relu_5: 3d2e43b2
max_pool3d_2: 3d2e43b2
conv3d_6: 3d31d9b8
leaky_relu_17: 3dc7aca1
instance_norm_6: 3d7c9130
leaky_relu_6: 3d36da4b
conv3d_7: 3d65de86
instance_norm_14: 3d8868e4
instance_norm_7: 3d86590b
leaky_relu_7: 3d35c319
max_pool3d_3: 3d35c319
conv3d_8: 3d7853bd
instance_norm_16: 3d86116e
leaky_relu_16: 3d3d199f
instance_norm_8: 3d4dd120
leaky_relu_8: 3d202b8c
conv3d_9: 3d9f7247
conv3d_17: 3d9c9579
instance_norm_9: 3d2ca50b
leaky_relu_9: 3d2011c7
convolution: 3c80e650
pad: 3c80e650
cat: 3d35c319
conv3d_10: 3d670973
instance_norm_10: 3d707988
leaky_relu_10: 3d35473f
conv3d_11: 3d77803b
leaky_relu_14: 3d255179
instance_norm_11: 3d889c12
leaky_relu_11: 3d5b5b15
convolution_1: 3c9a2188
pad_1: 3c9a2188
cat_1: 3d2e43b2
conv3d_12: 3d1b67f4
output: 3e353ecd
instance_norm_12: 3d9aaac1
leaky_relu_12: 3d4118db
conv3d_13: 3d714fae
instance_norm_17: 3e02f134
instance_norm_13: 3db87c15
leaky_relu_13: 3d75617d
convolution_2: 3cbf119b
pad_2: 3cbf119b
cat_2: 3d2490ad
conv3d_14: 3d19341f
