TRT-100800-EntropyCalibration2
input: 3d1d5e9d
conv3d: 3cc136c3
leaky_relu_17: 3d97bf7f
instance_norm: 3d1f70b7
leaky_relu: 3cfdc9d6
conv3d_1: 3c82f650
instance_norm_15: 3d92593e
leaky_relu_14: 3cf4c88b
instance_norm_1: 3d287c05
leaky_relu_1: 3cff101e
max_pool3d: 3cff101e
conv3d_2: 3cda3985
leaky_relu_15: 3d627141
convolution_3: 3c8e8800
instance_norm_2: 3d31d571
leaky_relu_2: 3d054ace
conv3d_3: 3c614ac9
pad_3: 3c8e8800
cat_3: 3cffb703
instance_norm_3: 3d2fe6db
leaky_relu_3: 3d0a573e
max_pool3d_1: 3d0a573e
conv3d_4: 3d05fd7b
conv3d_16: 3c966f36
instance_norm_4: 3d2ea537
leaky_relu_4: 3d051279
conv3d_5: 3c94bca8
instance_norm_14: 3d3193f6
instance_norm_5: 3d2c1146
leaky_relu_5: 3d008f6a
max_pool3d_2: 3d008f6a
conv3d_6: 3cdd14fe
instance_norm_6: 3d1d87c9
leaky_relu_6: 3cf89375
conv3d_7: 3cca5834
instance_norm_7: 3d20db90
leaky_relu_7: 3cfceddc
max_pool3d_3: 3cfceddc
conv3d_8: 3d146cb4
instance_norm_16: 3d3cbc70
leaky_relu_16: 3d0a528c
instance_norm_8: 3d11df8b
leaky_relu_8: 3cea85c7
conv3d_9: 3d2a4a2d
conv3d_17: 3d50ac03
instance_norm_9: 3d1aa4d1
leaky_relu_9: 3d07ae74
convolution: 3c39bbaa
pad: 3c39bbaa
cat: 3cf45f3b
conv3d_10: 3cd3275e
instance_norm_10: 3d21f209
leaky_relu_10: 3d0aa5b1
conv3d_11: 3ced2c25
instance_norm_11: 3d4c2050
leaky_relu_11: 3d2c9b7a
convolution_1: 3c50c07b
pad_1: 3c50c07b
cat_1: 3d01b455
conv3d_12: 3ca363e0
output: 3e81788f
instance_norm_12: 3d3231c2
leaky_relu_12: 3d182d9b
conv3d_13: 3ceb4ab3
instance_norm_17: 3dc7ff02
instance_norm_13: 3d784a64
leaky_relu_13: 3d49074f
convolution_2: 3c8242f0
pad_2: 3c8242f0
cat_2: 3d0ab188
conv3d_14: 3c8cc32c
conv3d_15: 3cbd27bb
