TRT-100800-EntropyCalibration2
input: 3d03cbc2
conv3d: 3c706c64
instance_norm_17: 3e0b19d9
instance_norm: 3d45a00c
leaky_relu: 3d0ab068
conv3d_1: 3d0db977
instance_norm_15: 3dd6bb17
leaky_relu_15: 3d6a2e3c
instance_norm_1: 3da8c32e
leaky_relu_1: 3d2dba4b
max_pool3d: 3d2dba4b
conv3d_2: 3d03baa6
leaky_relu_14: 3d381d81
convolution_3: 3cb0883d
instance_norm_2: 3d8b0b52
leaky_relu_2: 3d487f68
conv3d_3: 3cfc9663
pad_3: 3cb0883d
cat_3: 3d2dba4b
instance_norm_3: 3d8eaabe
leaky_relu_3: 3d425b9f
max_pool3d_1: 3d425b9f
conv3d_4: 3d565f38
conv3d_16: 3cf93e0a
instance_norm_4: 3d985d91
leaky_relu_4: 3d367324
conv3d_5: 3d238aee
instance_norm_5: 3d88c153
leaky_relu_5: 3d38c464
max_pool3d_2: 3d38c464
conv3d_6: 3d4cbfe3
leaky_relu_17: 3dbbf96a
instance_norm_6: 3d84ca66
leaky_relu_6: 3d3b4738
conv3d_7: 3d48fa75
instance_norm_7: 3d774bd5
leaky_relu_7: 3d33a82d
max_pool3d_3: 3d33a82d
conv3d_8: 3d457507
instance_norm_16: 3d81c94d
leaky_relu_16: 3d38cc5f
instance_norm_8: 3d490848
leaky_relu_8: 3d2030b4
conv3d_9: 3d8b41b0
conv3d_17: 3d6fe456
instance_norm_9: 3d5b0f34
leaky_relu_9: 3d3533f6
convolution: 3c85beee
pad: 3c85beee
cat: 3d2cc587
conv3d_10: 3d580e51
instance_norm_10: 3d7234e0
leaky_relu_10: 3d2f0e1a
conv3d_11: 3d5659b3
instance_norm_14: 3d7bb648
instance_norm_11: 3d943f3b
leaky_relu_11: 3d540c2b
convolution_1: 3c9d13ae
pad_1: 3c9d13ae
cat_1: 3d38c464
conv3d_12: 3d35e08d
output: 3e374153
instance_norm_12: 3d8d74e1
leaky_relu_12: 3d50bd7c
conv3d_13: 3d444f10
conv3d_15: 3d13430d
instance_norm_13: 3db2dca5
leaky_relu_13: 3d7859e0
convolution_2: 3cae4ba8
pad_2: 3cae4ba8
cat_2: 3d502464
conv3d_14: 3cfe6235
